LanguageModel 0.0348909984961
LanguageModel_OOV -0.0571814204283
WordPenalty 0.104046028504
abstractPassThrough 0.001
andPassthrough 0.001
corpus 0.031
deletableConcept 0.001
eventConceptNoChildrenPassThrough 0.001
nameDelete 0.001
nonEventConceptNoChildrenPassThrough 0.001
numberPassThrough 0.001
passthrough -0.014
r|c 0.03
stringPassThrough 0.001
synthetic 0.03
syntheticNoArgs 0.001
syntheticScore 0.001
withChildrenPassThrough 0.001
